model_spec {
  name: "mnist"
  signature_name: "predict_images"
}
inputs {
  key: "images"
  value {
    dtype: DT_FLOAT
    tensor_shape {
      dim {
        size: 5
      }
      dim {
        size: 784
      }
    }
    tensor_content: "\310\202.?K\036\312>\247Wo?\270\242\037<=\221j=\373\232h?\360\277\274=h\345Q>\325\241\321>i\027t?\330p\014?\r\275(>\271\256\022?/o\345>\210\244\023?<\355A?\2130F?\332\364J?d\227I?Z\356\302=\216\231\241>x\274 ?W\253\n?I\313\343>X\037/?=A\357=\032=\212>b\006\037?\034\322D>\006\275a?\315;\257>\007\243\035?\030\331}?\006\177v?\204&=?\357 4?\365m\224=q\017\327>\026aL?WhS?\344BU?\007\005\327>\230\273\260>\350\364??\272\254\201>RT\205=\227VD?\367\024\003?\014\247\027=_\346f?|\033\036=\026z\334>\250\330p?\265f\006>y&\211=\235\0245?F\257\337=(\377,>\023\221\335>\257P\003?\202\202\367>\220\005+?5\0003?\256S6<\2528\\?\327\323\374>\000\221f?\"\010\220;\275\006\332>0/\034>\030Tk>\322W[?~\332\020?\010\036\237>\222\330\221>g8f?\361,\013?S\302\331>E\330Z?\341\\#?\356\326\232>t\327q=\270\307.?t7\\?\307\201A?\034Nw?Q\034W?\327L\205>*Z\t?\300K\341<Aj2?\024~\023?\024C\277=h\317\352>\251QQ?\363\'R?\372A\356>\250\204\224>\256\363\300>\367\021N?\252\265\242=\335l\234>o\256b=\211\305\232>\\cg?\226\236q?0S\263=#-n>\005!$?W\320m?\255\3445?\177#\202>u\366\014>\376\223\020?[+\241>$xQ?%a#>C\357F?\267\377\231=\215\372:?\354P\336>-\260\347>\247\006\000?\341Q\"?\341G@?k\274\244>{\224:?$O\331>KUU?\271\264\236>^ne?\020t\311>K\321\337>\037%\277>tg\226>\332\344\336=\270\240+?\311\323w>\336l\241=\222d\343>g;U=y\036\203>ru\373=\207U\321>\213=q?\370\310\035>[\257_>H\304\200=\323\257\364=\302\014\301=\216U\023?\021\320\313>\373\304\022?\304D\300>\204\250\345>\267gW?\276\\f>\310\260\362>\3155t=\366\231t?\263\002 ?\343\360\276>$\312P=\013\327\307>\351\255x>j\362u?60\276>\214\230X?!~\005??\377h?\200\342q?\251\230{?\332\346\225>\311\304I?l\312\340>\332u~?/\204l>\265\327\004>q\333\340>1\013\340>7\236D?\005\345\254=\207wJ?\347\274\020?I\314-?\246\354\271>\250@\002?Q\353c?\342\203\031>M\300}>\275\260\215>1Sj?\260\372\017>\315\272\034?\017}\337>\214\252\034?\017^\217>\277\366u?gp\335>\264p[=\372\310\017?fr@?\354\320*>\340\021x?\020\302\263=w\342\210>\356\001\300>-0\263>\n\322%>W\024@?H\255\014?\"\305\250=\2131\034?\213\3038>\232\'P>\276\350\177>\200\013\037?\352\335\331>Nc\231>\332Q_:\3454n?\331h*>\223\311\277>\n\3074?(JV?\023\260\330>\306bU?\376\035\010?\021\330\013?\327K\214=\300\276\306>%\202`?.\251\313=Z\003\324>\014\365I?\205TA?9\177\033?a\331\367>\327{\010?\267\323w>b\014.?%\2169?\302\177\005>\'\374\000?\205\007\326=\312;\032=6B\233>#`\034?n\311U?\374\r\036?\211\310\"?\371\202\'?\332\336\272>z\256\177?\206Z2?q\002\360>D\244z?\016\3118>\\\335\026?\\A\026=\253(\244<\316\206C?A<\344>\202\320%=\322\326H<\344\331f?F16?\362`\272>\341\006->\225\346e?\017(\305>\031n\262>j\217\257>\212\340\354>:\\\177>\354\242\354>*\343\021?%\204M?\265\261\003?M\363\026?\177a\'?\363\245u?O\025\001?e.\354>\217\264}?\245\320\032?l+\027?n\254\036?Xt\376>=\266_=\\\2513?C\231)>\003\241k>\246\372>>O(v?\221(6>z\213$>7\027\t>\367\265+?\177\253\035?6\343,?Z\004T?w\\M?&\245;?\221mG?P#S?\327\332\"?\320\'\211>\303\2601?nF!?\241\230Q?\207mz?p\301$?-\345m?\232\212\004?,Sc>\233[\016>\353\361\345>\035\300\361>\302V\006?6\225\037>\333,\'?\301\344\251>ZEV?\017\325\n=3\212\'?\315\222B?>\"\345=\311\344\215>\"Dn?\"\231\255>q`\361=\237`[?\n\255R?i27?\261f+?\277<\033?\355\376\333=\335\037\364>\242\261E?#\237\374>[\n6?\2421\263=T\326\253>\333A\252=X\361e?\277\037\357=\375\327\206>v\216|?\036\203\312=\230\277U?;\241J>U\302]?\333Q\013?\025\002G?`~\231>\224h\330>d=\303=}\324\177?N\235P?\0028\276>\371<a?*e\257>\3002n?\273\002Y?5\336d?\2177!?%{f?\311\370\004?iM\255>\322\204G?\360\221H?\212\224\206>\340\033\027?F4W?.4E>Hd\020?#]1?w87?,g\000>Y\252\033=C\333\210>\245\257\372=\301\336l?\245]\326>&\337{?\030~m? \365\025>p[Z?~\'k?\204\237g?\226\332W?\247X\251>\326r\\>\337\343N?2\235U?@\367A?\206\331s?\224\007d?7\253\265>=_\212>\231\217\370>J\345\343>\222^\001??\0253?\332\246\n?o\353k?\333\001X?\035\344I?\227\256\032?\243\215\245>\335\352F?/Y\211>\316\277\344>\325\017\356=\016m\r?\342\326K>QD\000?\372\241\247>\020U#=\274\375\341>\264\203n?\225\263b?$\370I?\321\007C=x\321r?\373y\001=\346\213\236<\230o\331>s\025\267>H\231$?\t\263\327>\251\336\255>tx#?\001\275\271<u\251G=\\\014G?\233\362+>\321\365x?s\201?>\226\330i?n\022\334>\352R\">\010\322)?\366\217a?\247\007\335>\301\335=?~V\311>\345b\037>Ma*?\364\253\250=6<\030?\234a4?\244\207=?\201\255\235>\264\035r?\376f^?\254\270\243<X\272\255>V\236\373>v\344U?\2428\">\003O\t?\313\314\034?2\365\245>\246\355t?\312\215y?\227v\027=\010\305\017?\226|0?\230\311\034?\017\304\235>@\031|?\2642\265>\211\306f?.\361O?\216\016\271>\326\365\016?\261\'\321>\271\233\006?\264\370\032?\353\262\003?\027\211+?\010\344\202>\302\354\326>\177*1<\316\200e?\025Z>?\000\247q?\201\033\177>\317\306\220>\0059;?di\'>\224\362>?\372\030\001?\365\254\250>G-??I\337\337>b71?fy\323>*\313\266>\014\226K?V\345\010?\373\"S?\214\010\010?\005\035/?a\230H?a!\374>\367\202A?\214o\372>\223\356\376>6u\327>\366S\216>\321X\270>\342CV?\352)|?\t\206E>\005\001\323>[\356~?\323c&?\035[\001?\277y\351=M\212X?\2646M?\265\025\243=\246\031&?\275j??\002\212O?\232\266\010?\322\333_>\221\260n>M1O?\364g(?\033\253\n>\212\324\020<k\301J?.4M?0`\222>g\356\302>\'\207\374>\027P.>l\2277=\261`\252>\326=o?\030\206\346>\"DF?\303\347$>\205\324\227=\310\201r?\341?{?\216\227}?]\031\\?/tq?r$u?\242 4?vL\372>\370\325\033?>GC>\003\242\340>z\231\241>T\014Q?:\231;?\266JO>\273*~?\226O\000?\232d\273>\226r >\252\304B?\340\235\216=Q\310\220>\t\264\200>e\321\034?9\277\227>\342Qs?+\347\353>\330\313\2529k+\365=.u\302>\257\010\013?\271\217\336=`6N?=pv?F\310\013?`US?i\310\026>\217\030|?4S\206>\022y2=\317\222I=\244\007?>O\354>?w\243O?cr\'?\352\206\022?\272_3>6dq?\221X\213>y\275\006?\352\372G?\273\215\375>i\311z>\026O\201>\307t\376>\217V\374>j\3208?X\346r?\303\302v?\325\350==\324ix?L\303\362<\357\314\003>\236\230V;\266\217N?\021\356.?z\024\277>\005\246l>\316\223@?[\336S>\344\312\240=\032\343\005=\006\321\006?LYT>\220\331\002?\323,\221>\217:n?<\006,?\376\303\376=v@\026?+M\212=$\000-?\332S\353>\340\022c=\301K)>[\244y?Z\325\352>\360\024p?\345\030X?g\223\211>\327\026g=\320\334\255>!\357]?\254?\341=tz\371=\'`\335=M\257\034?\347w\205>T\275\311>\225@\316>\367X\354=\276\355<?\033`;=\270\321 ?l\327??\334\013P?\215w\342>\021\234\377>\226(4?\243\t\256>?\325\240=5\256\035=t\271\270>\367 \324>9\274\017?\263\307\203>6\247\344>,\213P?\360\313&>\035\340Q?/\367T?r\223x??e$?\241R\303>\226W\305>\361\311p?W\016\231>\256\017\247>\265\207\250>\275Mn?\013\031\004?\021k\324<L\347\321>\300X0?\266\255\242=\255v~?\3703\206=_P\204>n;\355=p\213\207>\177lQ?\341\223\202>Da]?\230\237\314>`qP?\326\016\216>\352}\r?\211\236&=p\307\242=\236\264j>+3\036?\032Ik=0\373\007?G\262\331>\232\306<?*\0048?\311Jq>\360\2310>\300\316\266>\334a\367>,H\247>\343(<>]\347\r>\330]\303>Aq\377>\335iz?H\201$?\254\356\325>\260\370\t?L\322@>\021>\020>\270\201\200=\210\361,?\035CR?\250\332f?\365 \037?a8\215>\000L\010?\000n\263=\'\315\026?|\021w?\330\327\276>5\0206>\233\202\017>\002\213\014?T\\\020?9j3>A\300Y?U<X?\346>5=\257\245\233>\311\021\"?\023\020A?\304\021\213>_\255\364>\34297?1\264/?/\337G?\274iH?\242\002\265>\375\256\210>\217zw>I\\\'?\343\304\356>\027\252f>8\304\205>\364\3277>\221\364\203>\367\344\035?t+3>2_j>1U\234=_\312\t?\236\235\331=\247\364\224>\207\022\000>\342\"\004?\352pG?\312~i=\307\026\025?\225^0?\212(!?$\267\237>\301\307\024?\331\2501?\226T\304>\033\362A<?Q\037?=~\211>\201*\'>\261\274\300=7\236<? l\207>\362\251u?\010\002\244>\2247\024?\241\024\377>\204\010m?\243-=?\315a\032>1\347\245>\221S\021?\235a\014?=a\200=\177\263\021?0\260v>\031\277E?f\007\377>b\241\277<\240\203\021?m\200\260>\371\220T?\001(#?\376\223\350>\361A\244>\303UE?\357\371\023>\314v\001?,S\016?k\016\310=\242!\317>\260q\204>\003@_=\025J7?\216\3172=6\214\340=\272\tF?\212\'\307>\220\260\341>\235-\360>\375\245\201>\277T\"?\037\277E?\207VE?;\251A?\210/\027?p\363\"?\354\017!?\223\030(?\256\241\022?\351-_=7Z\364>P\t\177>\331\327\220>\205\377n?\302c\214=\222\020N>;\351\342>\250\227!=\2410\265>{\343d>\261\271W?\230\364\271>\262\374W?\221\004)?>}\263>\037\016\303>\205J\031?\017\322U?\366\374\314>\341\030>?_0d>\366k\361;\274\017o=\365\220t?F\345[?z\200\010?W\261\266>\206\0378?C\024\030?\351\275-?\242\347|>\256\263n?\177R\037?\235\242\002?\201\340\255=\007Pw?\'71?G\363\377>\373\317\332>2\307\t?8]\016>\304D,=aK\360=\275\214L?+\016!?s\302\374>\226<\310>\247ZI?\357\200&>%\034\037?\321\203n<\322\220\271>z\211-?a$M?\007\2170?\001c4?\177\355\371>g|\220>\342\334\200>.\261a?\200\234\277>F\223O>ba\330>\310\245<?\245\245&>\206\220\177?{\327\263>Yx\337<\355U`?7\313M?\215z\264>\242\314t?q\330R>nX9?\nh\237<\t\346\023?\324\363\254=\031qR=\016L\325>A\362\n>\t\266\023?`\3547?\233\255n?f\312\257>\217\310S?\340ya?\007,r>,\360\005?\022Nu?\250\243,?p\001G>\243\376C?r{\375=\2400|>M\033\352>\234\337C?5\030\210>5&\035?\233\273 ?\317\212\245>\237\304\213>?u\336=f\370g?\215\010N>JxD<2\306\371>(\303R>K\302\024?\264\253$>,=~=q\313\016?5\356b?\305\225\226>x\352\233>\024^\035>\000\250\361>\345\324\010?\204\205 >\014\0012?\307?\302>\206\317U>#\326\004?B\263\353>\231\302!?\211\013\005?6\217\254>\204\357V<\227\377\227=\tD\342>\241\325s?\002\000\306=d\360\"?Y}P?\247\274\004?\276\246M?\014\203j?\\\222\036>\224`~?\324aJ>\177\220\321>!\264\036>ZWd?j\3626?\253\014\010?\3058\027?\0212\037>V/\013?2\027(<\014C\356=^<\371>s\022o?lT\315>Y\354\202>,[B?\363)|?I\235\014?`A\'?\364\230B?\244\255Y?G\206\177?\340\373\300>\322PA?\306X\251>\313\303\013?)\267{?l\232v>\355IW>4M\351>e\210\014>M\272\022?\022\366y?\252\002h?\241N\321=u\251\345>\325\373\305>\267\016\177?\312a/>G\003l?\302fG=\261*\212>j\3272?~P\316>w\314m?\302\313#?\326o\363>\350\351[?)\310\010?\354\261+?\366\376#?\354\307q>\2224\313=\007\356&?!\366\375>\343\252>?p\341\352>G\333\370>f\330z>\200\315S>\211\354S>8\302\210<\204\342\014?\tz\247>\340\220j>\252%\302>\207\3349?\324\317\232=Z\244\344>\001k\000?\310x;?Q\336+=\260r>?\020\345n>C\001A?\246s\305>\222hd?I\361\002?p\234\350=}E[>P\344_?_3\n?\236\000r?\313\232I?\201\241O>\001\314u?\231\363\007>\325\032P?)\005\024?z\2603=[IX?i!l=\3001\036?N\336\206=z\244O?\230X\233=r.9?\341\202n?D\266\352>\342-e?\215\310\035?\204\352E?\226j\236=<\215\225>\222\210J?L\352\004?\030\005N?\030\351M<@\327f?\2374\002>\256\247Y=3;\247>\031\n=?k_X>\344\345Z?\200x\003>|*\371>^I\261>\006\343\234>gW\010?\237\030I?v\231^<\356\277b?\246/-?I\033\326>\353@\217>\246\252\276>\202\303\n?\034\007\340;a\315Z>f\307\342>\246\2671>\343\377U?{\355\330>\364\3228?\013JI?\356\262\236>~\206I?{\307\022>-\220&?\304\3546>\037\266t?\336\371\266>S\2579?y\227t?\230\010\304=\307 1?F>4?~\373\034?\212\333\242;\222dw>RD\006?H\330\301>\270z\372>\034\352\016?\261\311\027?\223\247)?\231\334\266=\262U\025?y\000\203>@\357\004?\256A\007=P]Y=n\200\342>3\366\220>P\310>>\006\337)>\207h5?\031-\013?\0261t?ul\260>\025\241\236>l\276C?\177|\000?\331M\353>\001Zz?\024\372\303>\316\364>?\367g\030?\216\253G?\326Q\016>\270\343!?\003\320g>\247\306\">\206\301\376>\3111\027?1\221\243>\347\014\372>o\333A?\307}\022?a\370\212>+\340\010?\026aw?\327\"h?j2\037?J9\010?To\306=\ngz?\236\030\330=Z\230\203>\0000\214>\302\267\245>\266~\312=wV\223>\366?\022?\335\351\216>\227;\225<\003v<?\247\261\312=\207\216\000?\313J\'=J\234L?\032\261\376>v\344??\330\2358=\373 z=\301!^??\337\276>\371\364\231>\213Ja?ng\342=l\021\334> \001\023?\335@\014>\274\'\031?*V\216>W\251\312>\t\301\217=\"\330\334>t\327\335>\312\234K=\262\021e?Y\250\">U\321w=\354\362\332>\034_\365>j\350.>\0170\035?Q^\251>g9\014>Q\023S?8.\337>\356\014\227>\216\376\022?\247\216\025>zd\017?\274\246a?\241O\016?\337]<>\207\352\255>\360\250\006?\024\374\004?\022\014m?.9Y?H\034\375>r\311r>\'tT?[`a?V\021<?\231\'k?2\374\305=\002J\351>{\347$>\265E)?\214?\311<\357\331\200>S\216c?i$0?yY\333>\365}K?Cp\326>\310{N?\264\312\025?\002j\304=\"\210\277>\262\322\'<\363\3043?xQ(??L!?\262j\211>OD\017><\031\223<\224\330\261>E1\001?9\240o?(\304\n>5\035\037=\324Pw?DO\261>\350a\224>WZ.?\300RL?Y\024\334>{\232l?\0341w?\311\363A?\332P<>Q\340\205<\202\3064?\226\376\221>\303D\220=\007D\200=\034\353\342=\006\0233?H\'\344>\337\334B>V\2372>?\236\341=\032\236d?\371\037\017?7\335U?\303\206|>\025p\370=%77?\343Xt?\320\260\231>\034\302q?\233\367n?<&\245>a$2?7\031\253=f\253.?\032\027&?21\'?2\236\006?\217,\001?\362vb?\371\342\371>\244\307|?\335\214n?\240\206[?\276o^?\352>Y?\251\350\363=\326n_?\324\301]?\240T\223>\256\207\374;\305=p?\025\235F>w\241o>5j\010?\270\033\320=\261\232l?\336\202\016?\332\377\302=)-#?p@M?K\024\267>kx\036>\313=\352=\250\2721?\246\340\326>\"]\032>\327\251\204>\321\021\303>\230_\333>\377\307\371>>\202\343=\273\250\363>\372CM?\010T\372=\331\206\031?\362\323\'?$7\007?\377\256\322=\313\226Y>\225\020\325>\274#P?j\273n>\210\256R?\031-\275>W\241J?\371,>?\231\3012<e\221m=7\201$>\231\331Z?zQD=WN\220;2\005\006?k\242\313>\2468X>I,\204>l7\n?A\034\361>@\374\232<\253r`?iv\016?6\365\371>.\202\257<a\211^>\256_\343>\237\306x>:\016S?\270\025\246>\207\343\215=\270\361\032?\t(z?\205\177~?\207\355\323>Z\2476?>sh?m\352^?\036\220y?_l\335>\226\263\022?\222\374l?\330\0002>~\222{?\274\202N?\257\332C?/Q\024>\237{t=9TN?\342\376\004=\306<\004?\245\336A?\252\213H?\366\300\014?\364\201,?\300D6?}2Y?\252\306H?\004,\275>\032%D?\253\213\007?\305\1777?\245\006R?\023\340\351=,\206\013?+\350H?E\304\234>\337\247\314>\3348\270=M\247;?\006$r?\277m\305>\3328\222>\026!%?\2521^?\340L$>\225q\207=vX\345>\322M\014?\256I\311>\034jr>\201\240^?\247\t\">\271\274w>V\251;?\305W*?0\237\216>\241\022\267>\331\340R>\357\251\305>\225\024z?\326VV?\347B\002>m\232\334;\270\271\024?\036\014K=\373 .?\341\203Y>>jH>0\370<?\343\312\021?I\302c?\020w=?\244\2469?\r\001x=\272{d?\000\344v?\355\2147>\376\315\217=\362\'{?\001\230)>\0026\r?\327\251\350>\002w\302>\025\364\034>6,A?V\332\325>J\255\304>\371\3500?\265\316Y>N+`?@\244\375>\3320\341>\377\210\007?;\305P?\337\246\211=\330hd?\213]\204=\2336!?\375\303j?f\2016?\247|O?l\272\007?]\326H?(#s?\372\2061>\200w\342>\246\342h?\207}&?\272&\247>R\3611?\316\375\242>\214\325\353=\"1b?\217\014(?\024E\177?\320\223\343=\'Gf?()\037><\0318?\245\256j?\202\377J?\323\241\022?\033\027w?\343\306l?me\233>\223\271\234>\272\277\254>,dC?\223\240??\256X\211>}Zi?\232<\032?Z]\366>r@\310>\372\324\'>\262\2735?!\341\021?2=,?\020\202<=:\363\030?U\356b>\005\2271?\357 5?\275\354\232>\270\346|>W\303A?\023\357D?\2202!?\177\365d?\211\222w>\246\373f?\035\261,?\220\025\r?\366a\275>\324\253\347>\021\331\303>\237[\r?\022dq?=j\036?\030\352\236>\277,T?\004\204\315>\207\324\254>\014\230\212>rn\217>W\335\323>\262\310\316=D7\035?\031>G?\037\306\031>\312\350\027?\024\304[>\365\276\'?\224\367]>\327\246\263>\224\261+?\360\324 ?\017\275i?\227Eu?\020_a?\367\362\357>\364\000@?\214\0376>\257rK>\357PQ>\020R8?\305(\026?\235*??\024\350\235>I\'b?6!t?\3436[?\364\3617?\276\"C?\234\352@?\016Vr>\206A\373>\333\315K?\254>??u4]?\260\nC?)\013\003?\233l\177=\323X)?Z\336:?\272ao?;\225]>\274\257L?\367\333\257>\275\374Y?\317\325r?:BW?\235\375\271>)\254\033?t\266\360>8\277\356>\021\272n?\366\026g=/F\020?\037\000\370;\250\363P?U\3132?\007\014W?\265e\023>``\253>\325\203\213=Q\3104?\274\233\223>E\035\227;\331\006\273>\200\331\001?\0254==\\<j?\324\307B?\3375j?\177K\210>\024\225\271=\201N}?Y]Y?\376/\010?\3164\347=:|@>\034\2122?>\027\374;oWU?kLl?\245\007-?)\357\003?\346\220D>\376\364\031>\363\210\213=h~\034?!\213\237>\223f\005?;?\027??\332\335>&j\356>kq\215>L\322\252=V\353\t?\332\354V>\215\334-?\342rj?\346*%?$c\013?\332\r\024>\231\243T?u\246\010?\367/?>Q\002\227>T\032\350=\246|\300=A\214{>\315\264\336=\217\373\031>\232\237B?P(+?\264\350Q?\030\350\266=\013\232[?\300D>>\271\316\220=\226\211\224=\007`g?\314\035\033?\262\337j>\0055C?\222WW?\254\236&?\300\354.<\332\362\327=\003{~=\021_\350<3\303d?9\311n>\252\330;?\337\257l?\212#\264>\203\241\024=(H&>$\217\230>\325\271\313=\026\242~?A\227p?F\020\'>yN`?^[\014>I\327j?\3639\017?\0208%?M\242\377=\002\020\374>\371\365,?]\225\">7\236l?p\016\024<\315\"Q?Ij\227>\276\016\317=\311\365J?h\252S?\265\330\265>1\325\203=@\020\310=p~\244<\336\021\344>`\017G?\013\357G?\257)[?\341\355`?\332\317q?\315&[?si\033>\212\354Y>\241\213\344=>\323\347>\337\035p>[\264$>\232\276\'>y\216\346>\272\030B?\205\260\t?\036\216~?\036\3668?d\315\300>\024\316n>\023\373!?e)\242=\244&|?\264\304\327=\327\005V>U\321{?ex;?\210\273v?\230]\303>\254\327\311=A\327T?Z\370\022?$s{?/\264\267>8\304_?\215)\004??E\265>\277\211\021?\002Ye?\321\277\375>\254P\322<\3565\022?\006\204\271>\217p\373<\366\232F?\030\334y?\341\322u?\325\205>?B\025\027?\243_\\>\302\354c>\275r\027?r\250\244>\024l\177?|\235\217>t\274T?BO{?2\223/?:-\"?\276#\t?(\345\360>b\3435?\230:\\?}~D>9\350\231>Pv\363>\254\305A?\307g\254>\037\341\340=\346\375\223>\250QR?:\206\024?\343\340\031?8\333\013>\007\006\303>h\277\204=\004\304+?b\220\315>s\013\"?\244\232x?\343\366;>\351\006\262=f\251\034?\346\347C?\020$\001>\352 -?3\342\022?GE\331=\364\024y>\227\2545?H\315E?\357x\036?\333\340\221=\336_\202=\267d#?\003\016A?I\241A?rcb?\203q\006?\277fF?\013\245M=\301kG?\301S\353>\232\247\325>\300t/?c\010@?\221\243,?9\342\244>\310}\024=\377\2608?\302g\265>\223\205\342<J\344]?#\r6>\020\220s?G\276\017?\205\323d?l\361i?\366\023\247>\337rd?y\313\230>\205\231\035?\351\252\261>\3727\177>y\211n?\027\223\027?\300\212\004?\320\252$?n5\013?b\374t?\340U@?m\235\207>\004H\227>\023\377.?\337\'\033?y\303\037>\337\315]?\337\350.?\325z\303>\300\222\276>\315\022\361=\257kw?\242Y0=!4\010?\022\345\271>@/b>\222\006Q>\206\276B?L\321`=if\267>\030\213\360>\272\217_?1\300\220>\271\250\317>\340\017$>t\200\023?\010\267\244>QV\235=\337\014\312>\021f\005?=\212\221=\315\301`>e\3149?\355\231<>\300\213!?\205\325%?W\263\026?K\252\016?\354\335\340>\233\323\373>F\267\035?\326\002*?\212\342x?\013\t\221>}\344e?\353\326\326>-\375x>\304\237F>-\310\270>\355\215\010?\230\005\\?\3407{?8\261\217>\203\2419?\342\207\260>\322\010l?|.\013>\234\312\353=T\360\r>\370B\231>3\352\027=\305\000\202>K\314\257>\203\271u?3\020\325=\265p5>mP\r>\014_P?\305\003\326>\005T\326>\307/\224>o\255\243>\021*b?F\031\303>.\016\345>\340&\216=\3177\217>R\030@?m\340\253>Mjq?Z\027\224>|\216\236>~\275W?\300\314\r?\224\332\n?<\260-?\306\307\310=\354@/?\320\265\360>x\300;>T @?\260Om?e\037J?\rii<\247vR?\363aD?(G\030?\217$l>\010Z\277>\316\2400?\223\341\005?+E\000?\035|\032>yq#?>t\203>\347\002W?\377\247Q?\320\344\344>\317\370\221>\315\373\275>\204\363U>9F9?U\265m?\373\2739?\237\212\363=\n\345\222>\236p\346>B7\353>\r\\}?p\2416?K\234\301>g\020@?O\341\t?@vt?\372G\032?\344\271v>q\027S??\005\204>\033\3267?\021\312\035>[p\033?L\304\234>#|\335>K\272\\?\031H\246>u\315h?=\270\211>,\361x>\210\253\016?\020\033Z?D\030\"?u\321\270>\027@G?Z\336\034?\233\257\203=\027\347\t?\312\'\374>\273`\003?\201\273\340>\205^\226>Z\325\"?\266\0176>*\354C?Tml?\256y\177?g\246\224=\355\263\351>\311\351k?7\364H?\375l*?Px\375=\'o\347>s\2757?Z3\215>q\003\333>\237\177\323>\031\034H?\005aL?\260F\n?@lw?\004\214t?w`\033?\367M\212>V\314\221>4\263\234=?\262\'?\306\337\010?\357ZV?)]\"?\277\231\317>\2313\200=\003aa?!\033+?\214\035K>\362V\332>c_E?\267\233\241>9\234\243>~\003\354>\353(\350>\262\315\013?\317\350N?\376D\326:\2347\363>\377\246\'?\214\374\002?\026\2450?\356x\344>\253[{?\017S\036?\270\003P?\274\003w?z5U>\2773\n?\252\323\027?\037\264\225>,\006\013?\261\002\225>\\v\203>MnF?\307\0263?T-\005?\226\215$?\377\3642>\316\216\216>\203\272\355>1\270\225>\252\026\024?\3518\310>J\030\267>En\325>\340\244A?\024\272\304>\374\024y=\354\322,=\314\270\356>\344\345\333=\222Ej?\265\005/?\241\352*?p\303 ?\010\201\323>\3553H>F\022\244=\260\265Z?u\217\357=\262g_?y\302\003?\347p@?F\223\377=\236-\225>H\027R?\303\264-?a\351F<u\0200?\026~L?\215WU?\236\250\242>E\3564?\205qO?}\000\001?\022\357_?\264\037\226>\223\333L?\354\026a>c/\177?\230\317_?7\027\013?\037\245\032?\302#+?\217\n(?\245\371k?\272\3570?(l]?4\016c?(\364A?E\360\372=\005(\010>\274\243x>\025M^?\034tv>\341i\315>\361lA?\372\007\225>\203m\247>\3576$?/\023z?<*\307>\31319?*O\246>\377\316T?^\270\336>\307\364\243>+\3049?%\302A>\033\3067>\240|\337>\261&#?K\0269<df\210>=,\000?\317\304-?\"1\177?\\g\035?d\363\213>\220\026\246=6\356\352>\310g\252>RJL>e\0342?\267t\314;\275\232\336>\234n)?\001\353i?Gr_?P\345L?\000OI=\276\205w?\344\314\305>\233\235o?\272$\347>\257\271V?\215A\241>V\240S?\017\255W?\t\005;?\304\'\317=]{M>\355\024e=A\2014?\262\024\212>\356\205\254>\310\340\340>\304)\306>\010\370n?/\022a?\337\236\357>\305\202\332=k\356}?\343\201\272<\265\2710?\351\317m?\024#\\?\037>\321><\273\250;\311\203]>\250\357\t?\002\222p>\376\320\301=\t\201\233>\210g\032?\003v\225>\214\316[>\022?H?F\372j?\262\361A?\244\320f?\332h\206>B\002y?\341\241a?\250dr>= P?\214={?D\357\355>=\032F=\321JY?\266\205A?\324C\r?\351\032\024?\227\354L>\371\216q?\334f >j\351\274>\\\024z?\035\352\001?\001`\226>\336\0027?\243j\242>S\304\360>\327\370u=;\277\000?\006wo?\261\276M?\tSP?G`#?\315\374\312>\311\3469?%t\224>\305\373\353>\207ou?\010\n??\031\021\321>\233w-?\203,2?83j=,!s?h|W>JA??,r\032?\177tR?\304\241E>\205\032a?\t\321*>\200\226\376>\327\236\272=7\371G?\357wl>\335\224\356>|yA?\336\307\n?\244\226\005?\206\204\355=k\216\362>,\302\304=\302`\334>\002\014\335>\323+6?\271\034\227=\007^7<\312h\334=\027\354\023?C\270\245>0\207\024?\023z\022?\251zm?\3577\241>J\263??\275i\177?[33?\211\2253=p\305\211>\263\232\355>H\265\231>\215\276$<A\2337>\274\247\020?\240\276\210</\255:?\235\233\224=\023IY?\300\267`?\037\251\257>\010R\377>\342\035\363=|\204\014?:\302\003?Z\355v?\324S%?\347\201\000?\023\265t?m\360s=!\241\013?<\317\262=\235\377\341>\320Vt?@Ll?\361\210b>\307\010J?\240\274\226>*\201\n?6PV?\354\242)?/\\:?\373ZK=O\215\252;\314\001%?\307\363\211=$\304A?\027i\037?\267* ?\002sA>a\206->\202\027\230>\222P=?P\203!?k\236Q?\372\336\372>\331\215\025?\377\'\254>Q\030\361>\365u\355<$C\247>d\311\237>\222z\233>g[->\245\"S?\354\371\355>\004N\314>\213\010L>\317\024J?\325|\003? Aw?I\257x>\002\303\222>\002\240\325>=\027\231>0\356\216=\314 ;?Uvx>\337\337n?\177W\001?\221\025\261=\343t7>\232h\337>\254Qy?9\363G?\342\224>?\273\223?>\255\016Z?~\344x?\313\303t>6Yv?\316\003\244>)+\035?\263\247D?p\226\022?\352qc?\363\325\215>\022\302\313>f\205\301>\353\237i?\241\333;=}\211\364>%\223W?\026%_>\204W\'?\274\364\254><\002\224>\ncT?\253\364@?#x??\0140\377>\3275y?\000\246\037?\213\025\002?\261\3136?\243\360\025?\020q4?Y\016\271>\262\2211?\356\364@?S\364f?{\265[?\272\312\217>\204\2445?HCt?>EF?\202\010z?\212\235\257>\302\362\213>\252\325\230>\010\"\007=d\376)>If3?\006m\327<\001\253\225>\216\314y?\034c\004?\316\216F?\360\370\'>L\235^?\211\376t?Z\031u?l\233.>s\212\036?\232\236q?\245\220Q>\360\")?\360cc?.\222c?So0?NB\006=\273\260~?\236\000,>6\317\034?\367A\216>U\214\313>X|/?\222\315\001?\265p7>\331U@?\223\342X?\335\270>?\236;m?\277`\254>B\010^?\004\034(?r\025\365=jE\274>\303\034\002>\255\323\267>{\237\206>#Z\245>-\341\003?\266\234\277>\261H:=\202\037\333>\204X\005?\370\262\327>\0235h?\0019\317=%6\231>\337E\254=f\210\256>C<\244>\375\264j?\376.\276<\241\031A>\311\035\212=\030xg?V\340+?\rk\237>\366JC?m\315b=\377M\003?\220Fh?Nqr?\210\231|?j\037q?(Te?Q\237\244=3$O<\335sP?_\307\373>\265a\301>\277\332\t?\020^:?D\017z=XO\035?\214^\315<n\307C?yj^?UO?>~\355p?\023`q=\362\274Q?\337K7?\310\353\017?Z\223\002?\221 \305>n/\343>Y\264\203>z\220\014=\372!S>\232%Z?z\336\'?)m\351>\363rH?\036\003\202>\3732\342>\002\220\320>\251\243%?\2326u>\177E\031>Y\221\336>y\261\202>\252\225\235>\022D\024>\330\020\216=X\004\273=\253\374f=8=\177=\022\336\320=\334\231,?\370\220}?M\205\022?\363\215\362=;\3402?\361\262\232>\262\010\371>]\360\315>\344\325\253>\212(r>@\202v? \221\257>\276\020$>}4\377=V\376S>\243.d?\373\002\244>j\301\254>\3311\001?->\203>p\231W?\373\330\013?\355\023\240=Z\367\334>m\254\250>\237\251r?\020\262`?g\220\354>\262\205\000?\200\323H?\241-8?<+1?\022w\001?{s\302>\'\005N?\251\311u?1\204\037=Gda?+\241\340>\021\264g=w;w?)\234~?\326\002\342>5\303\256>\214vv?^\317e?2t\206>~\024\037?\217\230\340>in,?\014\000\333>6\367x?L\356\322>\245\215G=\254\370\303>m}\300=a\341\206>\022\221\035?\372`\253>0c\005?j: ?\267?j?\271\034\343>|\220\r>\201VQ>\240FD?\204/\205<2=\343>\311e\010<\356\226\355>\314+\222>\305\234T?*WL?v\211c?\203\354\027?\251\247\366<z\3161?\375\204a?p\266j?WW@?\325\254q?\207\353\207=\313\326\271=\265\016\373=\253\257\366>i\333\010?\325\000\217>\212\0055?\n\210\273>\000sr>\254\225N?2\206I?\246\253\307=\265*`?`\266J?\355\261%?\327\330\351>\216|V>\335\333\212>\321 =?\264e\301>\363J\\>DOC?\276\035\020?\200Tq?h\267\336>\214u\364>6\000\030?\273\342P?\226e8>p3G?\376\023A?\000\021\304>\362\337\227=\032\214\362<\211\334~?Z\0217?!8\013?9\246\265>\251\"5?\022k ?U\000\346=\206\335c>\000\177R?3\336&?\370r\027?5o\233>\236l%?\266\207X?\271\260\277>J7^?B\372\260>/(\354>\024\226D?S;\246<,p\177>y\366:?\202\2616?\206\245+?~\240\353>^#[?\027\330z?\264\252\233>\225_(?\316\032\320>\222h0>\341\355W=\224\350\337>\362~h?+\372\235>K\023\316>\316T~>\017\337l?G\023\020?\004z\275>M\3319?\013@$?0:j?\2008\037?\034\037@>\014./?E\326K>\310\206\215>\033\035\223>R\212\014>O3\322>Tj\244>\301GN?|\200O>\014\350\r=\367V\337=n\357\030>H\225R?\211\237\331>\024\002\355=\'\247\001?\276\260q=\t\'\303>1\277>?\311i\333=\234\242\237>\305\332\014?5\336E=\243A\251>\201\264\322<\364#A?\337\3714?x@\034?\243\364Y?m=L?C2\312>\216\257\214>\235\270\177?\022\3052?\224D\207>:\270\325>\005g3?Hw\002?d\023\335=\315\342t?\2143d?X\367p>\250\346\301=\353@.?\371\270U?\272$/?\026\024&?C%q?6\004\265>\3605Q?\276\315\023>\n\\\273=\360$\341>%\377W?s\302\023?\370\220M?\365su?6\304\016?\205bF?\300_\'?\t\263\301>\276\3204?\211\010!?\364\014\344>N\357r?7\347\004>\336\035\037?k\324\244>\243\241\023?%DX?<\344o?\376\023{>\270\225*=\261\337\024?n\224\242>\223|\034?n\344\312>_K=?\326M\307=]K%<\010\204\346=\350f\266>\263\263\036>gGb?\241\227=?m\335{?![[?\366\373\013?\351\002w>\"\241R?7\031+?\241Oc=\275w\220=\037\016\005?\251\030u?[T\361>\357\375\315>\367\331\212>5\255U?\225_\025>\370:/>\035*\023?\202\330\230>\217\234\003=<p\234>nZ\223>#\010\314=P\216\370>Z\210~?\202D\036?\363\215\007>Z\016G?\206y\343>?\200S?fZ\211=\202\267\231>\020rE?\327\323G=\272\210\212=\371\220\003?\320\n\300=\326\204\037?\341\233\226<P\360V?\221\035L?\300f\260>\006\376\030?\234\370;>\344s(?=ER>\374\177\017?\302\320\010=\3763\025?|^\002?.<\237>a[\023?\204j>?N\327\375=\030\265+?\344\300\027?I7e?\036\345\214>\324\235\372>\006\332\265=\263G\242>\236\372\n>q\304\255=w\334]>L?V?\340\3122=\220\337\225==\323y?\347\'\205>\263\311%>\332\266d?\321\003]?,\362\023?)[\037?&\300\244>yaK?\227F\327>\000H\351>W\274\266>\006s\305>\tI\270>*_h>1i\017?\312\r\014?\352\316z?e5\307>\215\253\"?\3479\363>\366\212\024?k\355+?\035,\355>\270\002\345>tpr?\022\330\320>*#p?\322\213[>\005\215\r?\036&q?\230a\023=L`\032?\242z\353>i\200d>\1772\314>U\277k?Pb\264>\205&\321=\010\220=?\334Q/?\305\266_?P\013\n?COY=|AV?\256\006Z?S\305]?\250\217\r>3\'\244>\240l3?\325 \366>gB.?<V\331><\233\371>\215m\t?1f\372>\003j6?\221<z?^Y/?;#\014>\321L,=\206JY?\rK\345>\262G\274>iiJ>\224\351}?tf#>\322\242v?K\206\006?\301\221\335>*>M?\233 \001?\004\007u?\035\004l?*\207\006?]*8>:\376}?z\035^?\213\267}?\316X\n>)\231\272>\035\237\206>*{\314>\210\342\362>\025)1?\347i\334>4i\007?\237\036\267>O\000^?\216\345S?\252\024/>\347\352\267=\336\234\355>\007a\204>T\241Y>\005\033X?\010\272\025?\255\354\005?cq\335=n\005@?\010\344\017?\304/Z>\355\341y=o\205\340>\256\360\211>v\306I?\177\261\006?\244m-?\021\276\032?\220\364j?_\214n?~?P?8}\375>\376e\334=%3\010?\304\251\006>\225Pt?Z\340\331=N\177\022=\316\334\300<\231\371*?\304\240\350>l\306\006?\346\275\354>\271)h?8J$?\354pD?\234\342p?\r\341D?\207k$=\330\277i?]\177,?\206\002\236>\310\242p?;k#?\313\037\355>+\214E?\000\271y?\265\214$?\255&Q?\234\003Y?f\033\304>d\232\031?\314\002N?dB\314>\313\025\020?Wt\036?\031i8>F\307\007=o\205\r?W\226\315=\376m\351>\310\020\310>\030\365\363>\003J\036?\024T\237=J\022v=\263f\371>\207l{?\010\034C?\232\200\326>\220&\010>~\325z?]\013\'?\0237B?\2013\177>7\024\340;\334\0321?\002\253\250>c\022&>T\366\006?>\203\354>\230OV>\205,y?\361\303\360>Q\332e?\301uU?]/G?Z8\005?q\037\001?\203\026\371>\3564(?KGz?\016\312\325>\273\2525?.\030w?\334\177\244>\234Z\034?\315\202\211>\267k#>r\032b?>\302\021?K\366\217<\003jG>\343\r4?%\223E?\235\304l>zI)?\366\246i?&\226\006?KS\t?\334\262\227=\334\037\"?\337\003\302>\317\3378>\212cn>j\3131?_sf?\211\362\375>\035\004\363>\2058f?@\352\264>\3604-?\035\201#?\225\356\240=S?&>\244`E?\350\325\240>\002\356&?\361\240\370=\020\371\320>\243\204\354>\361\246q?\244l\033?\341\372A?\271\246Y>\301\241\021?\031Y\017?\272W\236=\0272\262=2\021U?\274\331[?\241Q\217=>\320\313>\350A\'?\006Jc>\236\010.?\272\n\310>\252wG>hv\342>Q\260 ?V{>>\'-\241>[\253\255>N*Z?\'\341f>lT/?\345b\341>\361\037D?r\3508=\361\254]?\206\031^?z\030\006?8\234;>D\005\r?\307s[?\037\264h?\272\2228?\261,\325=\247X\241;M\361t?\257\200g>\372+\177?\367\240V?hN>?\204\241\367>t\3233?\260\036|=\353?g>\272\315X?d1;?\211L3?\225\032_?l\036X?{Bu>\212\226\314>}i\'>\332\327\036?\003\270\024?\360ez=\016\353\247>\260\236\300>|\323\003?\300p;?3\017P?\365\rB=\273c\267=\257\361\343>\354Y\323;\324L\035?\255\225f?\"1U?\237\000\007?\351\010\205>S\021$?\034\325\002=\266\306\226=\031\252C?\246\374\032>\r\361p?\244\316\336=\345\236\221>\342\316\022?\3216P?\306\373`>-\240\020?\207\020y?\276+i?\302\204w?\331\027^=\314\336\317>.\222X>=\343\351>\223\3616?m\\E>\2669\312>\347l\347<J1\'?f\216\340=\366\302Y>\020\327P?$sP?\270\373Z>\3456\025?$\357{?\014\366\243>A\214n?\203\372\373=F\253\233>\323\357\023?1\025M?\035\326\363>\270\323\226>fz\253>;\332\365>\366\251\r?X\013\357>!\243V?\033\216\006>\3531\002?;6 ?F\2444?7k\242>}\377\375>\246UJ?p\2402?Wt\\?;\020\340=\202\225g?7eX? R\266=\003\234\232>\220\326\221>hR>?M\352\\?\210\234{=\213A\344>P\204Y?F{|?\016&\251>\r7\003?\014O\361>\223\3661?\251\233\270>\216\250\240=\3277\321>7\246\343>t\252h?k\225-?\010@\305>\342\0178>\3213z?3\270\221;7\214\227>>\023\324>Q)\256>\252\031\216=\204\000!?\2276$?dg\017?W\241\020?I\202u=\372\326\355>t\335@?\342\323\014?\262\217\364=\000`\031>\347\013*?\214\257\t?^zP=\370\235c>\033\3316?a\3543?JA\233=\277s\251>\371\257s;]tJ?\217z\024?\177\2444?\263k@?\345\031\323>e\275]?\347X\022?\314O\237>U,\023?]\\t>?\036Q?\327b1?\000\234\002=K]\245>O\253\347>\322\2651?KS\262=\261T\035?\217?_>\002P\200=L\030\360>\226\252\005>N\300i?H9B?\212\036F?a\304<?\252\003\226>8\377v>\340\325\255>\344\241+>dn\322=5\030\'>\177\267\030?\321\225$?`|\277>\367\310Z=\225\017\306=m^1>Pq*?&\375)?\252\251@?p2\277<\242\263\375=\03314?\373K0?\264\302L?a-;?\366\202\027?\23315?Y&S?L\342p?\231\337\227>\013v\211>\300U!?LW|?.\206`?\276\nV>e\252\343>\325?\250=\230<\255>\256\330\270>\351\026\261=\274\"X>\276\271\273=\317\345\030>\346\007u?\007%K?;\325\377=\361\251Z?\324\255\035?\234\0061>u\001\303> \214l?\341\352\306=/\272 ?w\337I?6\270U?(\203j=\303u%?\326\206\035?\316A3?\345\037\255>\025\223\033?\226\n~?\252Q\313>\274:6?\343q.?-|E?5\301s?\333\301\'?\031\252q=\331\336\226>a\026\270>D\356\275>*\343_?\211\303\330>3\346!>\313\022\271>S8R=u\270}>\336\377g?\335={?\033\n8>U\306d?Dul?K\243Q>\030^\363>Is\244=.\230Q?b\035\206=\265\246\206>\207\357\225>\240\331\372>1\336%?\"q/9\211\222z>X\225)?\021|\303>\301\325\202==\315\036?\361q\024?\321\317e?\025\237\215>\216 m?\245>\306;\034Y\346<\263:\270=\031\"y?S\001\r?\331Z#?n\262\000=^\200!?\342\320.?\260\215\253>c\264\215=:`b=\240\301\010>\240/\255>^\005@?\333\201\363>G\006G?\373x\367=\352$\275>\236d\341>\265\216*?\243\225G?\355p^?\226x\223=^k\032?\236oU=\000g\267<7#+?\226\262\361>p\262\226>\331\0356?\363\266q?v\305\376>\240\020\026?\316\334\363>\302\rt>\014^\361>mi\r?\017\253\200>\312<7?!`#?e\027Q?x\356s>\374\025??\270\3553>G0\000>I\273\222>2fa?*8\003?\032+<?\367v\262>\302\200\\?\312\230\000?\371\242\021>|\236\'??\314??z\2662?>@\007?\021\246o>2+t?\330\250\221=(}f?<\2737?\252\241\277>\203\245\333>\234\232??\246\336&?+\260#?\274h\244>LS&?$\202X?\207\226v?\352\352\224>\353\341A>\\\016\226>4\257\'?\317\221\204>\230y\001?\237\333e>\037\314\243<\365\251\260>\352\244\020?\365\003,?\331V}?+\314a?H\261\311>f/t>\273:\302;\243\325c?1`\231=/\340S?\377\342\260>\371\341\213>\377\177\366=\n\323;?\226\206.?\251\213.?{\376\017?e\236E?\212\357\250>\355\r\001>j\251\245>u\314L?\215\0028?6\202\253;\257}F?\337\247\257>=\260V?\257n\233>\351\241J?J\250-?\367\303\257>\254$\252>\306\002\201>\325\252\362>\215V1>\276\357\027?\266%\360>=\315\223=\263,q?\236\317\177?\246\313>?\326+\206>6\000\003?o\253U?L\210C?\351\211\341>\225\270{?>gg?/8\016?\021\021\272>3\311\036>\314(z?\273\225\202>\245\224#?p\004G?E|\224>\222\230U?\225G\257>\236\264I?njs?\37679?lH\376=\303\013J?B\020b?\324\251\323>\017\331\005>\3539\013?\340H\036?)\365u?\204\256/>Qy\"=\342d\022=\316\255o>\272\\Y?\270\241\001?m\017\037>\232o\322>\214\222\232>\362\374\211>a\031\016>s\233\331>\375g\202=\241\373G>\263\265\234<\234y\217>\250\342\212>\241\327}=\307\000\226>\357\332\177?\344\0039?\266\367\200>#\223\010?\261\357\251=\213\n\203>\274\374\032?Ra\002>\343,O?\006\233E?\343T>?R\355\034?\363\355\002?\306l\230>6S\301>\375\r@?vqB?\220\276\010?%\323\"?_9\010?(\020\024>\274\232\271=\372\"0?b9I?z9\344=\345;\303>\376e\235>\274\037-?\243n\024?\230V\322>\201H\263=\274\000-?\'\251\344>)\365\342>\204\346~?\273\322!?\016\352\243=Q\341\323<\002q:?*\'$?\251\361\214>\357qQ?0\252\314>0\360\027?~ag>\017\027\205>\315\353\261>\322\323\023?\304\342E=\365\220\\>y\025,>\177d\\?4,j=\016\245i?\377\032\343>\\|\202<\214\273\274>0\254E?\004\"\256<q\231-?\302@\340>\3500K?Y\201|?\"G.?\253\337\016?\005Vg?\366\347\023?\335F\220>&2,?\322\246a?\333\343\213>\300NR?\"Y\022?\270\0271?\242\016\306>h&\220>\340\0032?\034\366q?\003\267\330>\356\343\000>\214F\307>\377\260\006?\334\265w?x@\300>\200Km?\325xI?\254y3?\300\003\030?\230\363v?\312\036B?\"\007\336=Zg\377>e\\\031?\004\013\344=\267\266n?\2233=?-Ow?\2061I?\374$\021?\365H\350>Y\344\366=\337\206\264>2\035\035?\337\332\036>PiU?\003\310(?|\350\273>\361\240G?\343\250i?\014\034\177?\n\244\352>\333\306}>\233\272\353>v\253-?v\2055?\234!:?sY4>\262\2211?\2459\033>>\361\033?\316\274\'?m\251\334>,\214@>s\363\016>\326*\200=\253\245_?\313\264f?\266\205w?\022%E?\026\210I?0\277\207<\300\310\242>V\020N>|\014\025?\215\017f?U o?$\300\252=\007D\204>\201\363\210>\301\332T?B\214\302=\000i\321=\252\326\002?\344\331\353>\344\273\225;\225\373m?\317\261\016?R\234\230=\303lf?&\233\276>G\t\277<u\315\r?\335[q?\006\034\026?\364{s=\257\177\344>\013\260n?U{\306>\022]\003=h\307`?\202\037G?\271\233l>^<\250>\0309\213>\307\024p?K\267\302>\033\024C>\'\327?>\277\312b?xKY?O1j?\345\306\374>9\361e?\316V\223>\266YE?\265\257,>\345Dx?R\005p?\267\315\026>7\345{>\\\372y?\347\017\177?\324\334\241>\225\\\315>\347\263\033?\030\352\336=5\252&?\261\273\'?\257\232t?\2158W?5\177\n<\332\307)?\340\007\320>\036\363K?\311zu?JME?Q_\'?\262\310\340>7\177U?\325\361\006>\373\331y?\211\261\251>\260\321\345>\366\276-?\223\016\203>\321\007\360>\2068\341>\250\231D?\346$B?\n\003S>y\0027?w\206i?)\001\352>\227t\367>\206\014 ?G\235g>a\304=?gGb?(\277[?\221a\203>l\237\374=\224\354\374>\245\346B?\303\2500>\335\236j?\334\357\025?#Rv?\231w\230>.\341w?\314\030\325=j\032\304>\321qV>\371\343{?/\202i?\230\305\037?\341k~?s\"\332=\334t\331>\233A\352>3uX?\241C*?\243\377~=\326W\275>$\227\020?\010\305J?\232\323\r?uO|?\203\006\r?\n\245\376>[\242z?\264f\361>\234\374l?k\350,?\'$O?\273V]?<\343T?\204)`?b\253\261>\361\212$?\036[\373>:\304\353>O\0315?\277\r\336=\240\347\034>2Ej?\3375\007?\215\274\177?9d\376=\202\034\241=\333\372\246>\310\324<>\3400]=\330\336\007?\266\273\327>Y\304\022?G\002\033?\352d2?\036\027o?\373\354\210>\211\336\320=\315K\010?\234\3015>\346s9<\207\017\355>\221)\266>\027\013\221>\263\367~?h\021\234>}\354\000?p\2720>X\r%?\250\000q?\215\211\340=\276\211w?\354E\324>\243\337B>\025\306\322>\202\344\266=\325Y|?\025k7?\274\027\030?\235\332\335>\254\026;>B\3247?\334$\271=[\222\005?]\361\300>\240\200\021?\234LW?2E;?9\267O=\274\tM>$o\241>\222\204\361>\341Y&?\033\0275?\204o0?\216)0>fXz?E\023Z?x\305\316>\304\340K?t\234z?\302|\322>\206\371d?\020\246\344>\225C[?\177\366o?\001j\020>\006\020\013?F\375c?#\345V?\275_\267=9E!?\307\t*?\276\270\356>n]\177?\3122a?_\021=?,0\365<}\313E>\373\377\246>\267\336\027?\314l2>X\371\375>y\347X>\035\010\020>\263TG?\247/*?:[N?#c\005?\344\227f>\2566\273>\347?\327=\301\013\025?xj\246>\2620w?\263F\203>\254\030\t?\250\021\364>\r\3105?\353\027\371=\372\241\356>\227\345r>\216\357\262>@)}?,\310\233>\331\036r?\337\001\340>.\037M?\344\355 ?\261;\016?@\357A?\302\235\004?\245^<>(n\022?\205\247\335>\330F\273>\261\273==R\325!?\222\030E>\t\324\304>\202\343\314>q\240s>E@G?+J\035?\376\261\212>L\005A?\270\244\026=\346U\\>\203P\360>\273\210\220>VZ\215=r\357\005?\270\255\036?L\2509?\3761\021?\255\205\340>\375\3376?S2\254>\227\253\266>I\212&?\316r\234>v\267\005?\004\236B?\034\332A?_\234F>Tr\177?d\003\356>5^\307>\006h^?]F\313>\370YJ?\203\001\016?GA`?\3072\321>?\322\245>\005\350\"?\321\256\333>\271\217\006?\252\003\000?[\265\343<\014!\244=\225{4?\261\303B?\315(b?\031\376\353=u\265O=V\030\273>\022t\215>\312?a?\331\217\010?S0\226=\'+\336>\033\243\377>\315\233.>\374\361a?m\3238?\312\310\245=\356\026\371<4\310@?I\004\263=\035\326l?(\2067?\030\021X?\233Mm?\tX\301>"
  }
}
output_filter: "scores"
